#ifndef MODEL_DATA_H
#define MODEL_DATA_H

// ВАЖНО: alignas(16) и const обязательны для TensorFlow Lite на ESP32!
alignas(16) const unsigned char model_tflite[] = {
0x1c, 0x00, 0x00, 0x00, 0x54, 0x46, 0x4c, 0x33, 0x14, 0x00, 0x20, 0x00, 
0x1c, 0x00, 0x18, 0x00, 0x14, 0x00, 0x10, 0x00, 0x0c, 0x00, 0x00, 0x00, 
0x08, 0x00, 0x04, 0x00, 0x14, 0x00, 0x00, 0x00, 0x1c, 0x00, 0x00, 0x00, 
0x98, 0x00, 0x00, 0x00, 0xf0, 0x00, 0x00, 0x00, 0x1c, 0x08, 0x00, 0x00, 
0x2c, 0x08, 0x00, 0x00, 0xe0, 0x0d, 0x00, 0x00, 0x03, 0x00, 0x00, 0x00, 
0x01, 0x00, 0x00, 0x00, 0x10, 0x00, 0x00, 0x00, 0x00, 0x00, 0x0a, 0x00, 
0x10, 0x00, 0x0c, 0x00, 0x08, 0x00, 0x04, 0x00, 0x0a, 0x00, 0x00, 0x00, 
0x0c, 0x00, 0x00, 0x00, 0x1c, 0x00, 0x00, 0x00, 0x3c, 0x00, 0x00, 0x00, 
0x0f, 0x00, 0x00, 0x00, 0x73, 0x65, 0x72, 0x76, 0x69, 0x6e, 0x67, 0x5f, 
0x64, 0x65, 0x66, 0x61, 0x75, 0x6c, 0x74, 0x00, 0x01, 0x00, 0x00, 0x00, 
0x04, 0x00, 0x00, 0x00, 0x90, 0xff, 0xff, 0xff, 0x0a, 0x00, 0x00, 0x00, 
0x04, 0x00, 0x00, 0x00, 0x08, 0x00, 0x00, 0x00, 0x6f, 0x75, 0x74, 0x70, 
0x75, 0x74, 0x5f, 0x30, 0x00, 0x00, 0x00, 0x00, 0x01, 0x00, 0x00, 0x00, 
0x04, 0x00, 0x00, 0x00, 0xca, 0xf7, 0xff, 0xff, 0x04, 0x00, 0x00, 0x00, 
0x0c, 0x00, 0x00, 0x00, 0x6b, 0x65, 0x72, 0x61, 0x73, 0x5f, 0x74, 0x65, 
0x6e, 0x73, 0x6f, 0x72, 0x00, 0x00, 0x00, 0x00, 0x02, 0x00, 0x00, 0x00, 
0x34, 0x00, 0x00, 0x00, 0x04, 0x00, 0x00, 0x00, 0xdc, 0xff, 0xff, 0xff, 
0x0d, 0x00, 0x00, 0x00, 0x04, 0x00, 0x00, 0x00, 0x13, 0x00, 0x00, 0x00, 
0x43, 0x4f, 0x4e, 0x56, 0x45, 0x52, 0x53, 0x49, 0x4f, 0x4e, 0x5f, 0x4d, 
0x45, 0x54, 0x41, 0x44, 0x41, 0x54, 0x41, 0x00, 0x08, 0x00, 0x0c, 0x00, 
0x08, 0x00, 0x04, 0x00, 0x08, 0x00, 0x00, 0x00, 0x0c, 0x00, 0x00, 0x00, 
0x04, 0x00, 0x00, 0x00, 0x13, 0x00, 0x00, 0x00, 0x6d, 0x69, 0x6e, 0x5f, 
0x72, 0x75, 0x6e, 0x74, 0x69, 0x6d, 0x65, 0x5f, 0x76, 0x65, 0x72, 0x73, 
0x69, 0x6f, 0x6e, 0x00, 0x0e, 0x00, 0x00, 0x00, 0x28, 0x07, 0x00, 0x00, 
0x20, 0x07, 0x00, 0x00, 0x50, 0x06, 0x00, 0x00, 0x40, 0x02, 0x00, 0x00, 
0x24, 0x02, 0x00, 0x00, 0xd4, 0x01, 0x00, 0x00, 0x84, 0x01, 0x00, 0x00, 
0xb4, 0x00, 0x00, 0x00, 0xac, 0x00, 0x00, 0x00, 0xa4, 0x00, 0x00, 0x00, 
0x9c, 0x00, 0x00, 0x00, 0x94, 0x00, 0x00, 0x00, 0x74, 0x00, 0x00, 0x00, 
0x04, 0x00, 0x00, 0x00, 0x7e, 0xf8, 0xff, 0xff, 0x04, 0x00, 0x00, 0x00, 
0x60, 0x00, 0x00, 0x00, 0x10, 0x00, 0x00, 0x00, 0x00, 0x00, 0x00, 0x00, 
0x08, 0x00, 0x0e, 0x00, 0x08, 0x00, 0x04, 0x00, 0x08, 0x00, 0x00, 0x00, 
0x10, 0x00, 0x00, 0x00, 0x24, 0x00, 0x00, 0x00, 0x00, 0x00, 0x06, 0x00, 
0x08, 0x00, 0x04, 0x00, 0x06, 0x00, 0x00, 0x00, 0x04, 0x00, 0x00, 0x00, 
0x00, 0x00, 0x00, 0x00, 0x0c, 0x00, 0x18, 0x00, 0x14, 0x00, 0x10, 0x00, 
0x0c, 0x00, 0x04, 0x00, 0x0c, 0x00, 0x00, 0x00, 0x14, 0x4d, 0xda, 0x31, 
0x4f, 0xa4, 0xfd, 0x47, 0x02, 0x00, 0x00, 0x00, 0x02, 0x00, 0x00, 0x00, 
0x04, 0x00, 0x00, 0x00, 0x06, 0x00, 0x00, 0x00, 0x32, 0x2e, 0x31, 0x39, 
0x2e, 0x30, 0x00, 0x00, 0xea, 0xf8, 0xff, 0xff, 0x04, 0x00, 0x00, 0x00, 
0x10, 0x00, 0x00, 0x00, 0x31, 0x2e, 0x35, 0x2e, 0x30, 0x00, 0x00, 0x00, 
0x00, 0x00, 0x00, 0x00, 0x00, 0x00, 0x00, 0x00, 0x00, 0xf4, 0xff, 0xff, 
0x04, 0xf4, 0xff, 0xff, 0x08, 0xf4, 0xff, 0xff, 0x0c, 0xf4, 0xff, 0xff, 
0x16, 0xf9, 0xff, 0xff, 0x04, 0x00, 0x00, 0x00, 0xc0, 0x00, 0x00, 0x00, 
0x77, 0x19, 0xfe, 0x3e, 0xf9, 0x21, 0xa3, 0xbe, 0x7b, 0x44, 0xca, 0xbe, 
0x44, 0x0c, 0x09, 0x3f, 0xe7, 0xd5, 0x87, 0x3e, 0x84, 0x17, 0xc4, 0xbe, 
0x90, 0xbe, 0xd0, 0x3e, 0xd2, 0x40, 0x08, 0x3e, 0xe8, 0x0f, 0x8b, 0xbe, 
0xd6, 0x24, 0x09, 0xbf, 0xf5, 0xf3, 0x05, 0x3f, 0xb8, 0x99, 0x53, 0xbe, 
0x70, 0x88, 0x2d, 0xbe, 0x05, 0xfe, 0x23, 0x3e, 0xfe, 0xe8, 0x20, 0x3e, 
0x52, 0x8d, 0x0b, 0x3c, 0x83, 0x0c, 0x44, 0xbe, 0x05, 0xae, 0x11, 0x3f, 
0x23, 0xf4, 0xbf, 0xbc, 0xaa, 0x8c, 0xc6, 0x3e, 0x11, 0xcd, 0x2b, 0xbe, 
0xbb, 0x49, 0xd3, 0xbe, 0xf8, 0xf4, 0xb6, 0xbe, 0xb4, 0x56, 0xe4, 0xbd, 
0xae, 0x8b, 0x74, 0xbe, 0x78, 0xf2, 0x3c, 0x3e, 0xaf, 0xcf, 0x86, 0x3d, 
0x51, 0xc8, 0xd0, 0xbd, 0xfb, 0x62, 0xcb, 0x3e, 0xd0, 0x6c, 0x53, 0x3f, 
0x5b, 0xa7, 0x04, 0x3f, 0xc8, 0xcb, 0xab, 0xbe, 0x20, 0x6f, 0x22, 0x3f, 
0xda, 0x9b, 0x8f, 0xbe, 0x88, 0x3a, 0x98, 0xbc, 0xa0, 0xea, 0xde, 0xbe, 
0x8a, 0xdc, 0x46, 0xbc, 0xc3, 0x7f, 0xe4, 0x3c, 0xd8, 0x56, 0x7c, 0x3e, 
0x3f, 0x3a, 0x84, 0xbe, 0x5c, 0x2b, 0x61, 0x3c, 0xac, 0x2a, 0x50, 0xbc, 
0xde, 0x09, 0xc3, 0xbe, 0x5b, 0xdd, 0xfd, 0x3e, 0x3b, 0x2c, 0xa1, 0xbd, 
0x4c, 0xd4, 0xf5, 0x3e, 0x2f, 0x87, 0x18, 0xbe, 0xd5, 0xa1, 0x16, 0xbc, 
0xe2, 0xf9, 0xff, 0xff, 0x04, 0x00, 0x00, 0x00, 0x40, 0x00, 0x00, 0x00, 
0x6a, 0x93, 0x67, 0x3e, 0xa1, 0x41, 0xfd, 0xbe, 0xf5, 0xd9, 0xfc, 0x3e, 
0x3d, 0xfe, 0xcc, 0xbe, 0x5a, 0xe4, 0x93, 0xbe, 0xde, 0x23, 0x0a, 0xbe, 
0x81, 0x9a, 0xb7, 0x3e, 0x1d, 0x2e, 0x91, 0xbd, 0xc3, 0xde, 0xff, 0x3e, 
0x68, 0xdf, 0xa8, 0xbe, 0x94, 0x64, 0xa7, 0x3e, 0x78, 0xe8, 0x0c, 0xbf, 
0xb4, 0xa3, 0x09, 0x3f, 0x9c, 0xe4, 0x3f, 0xbe, 0xa4, 0x08, 0x99, 0x3e, 
0xec, 0xfa, 0x2b, 0xbf, 0x2e, 0xfa, 0xff, 0xff, 0x04, 0x00, 0x00, 0x00, 
0x40, 0x00, 0x00, 0x00, 0x37, 0xf2, 0x8b, 0xbe, 0xce, 0x9f, 0x0a, 0xbf, 
0x00, 0x00, 0x00, 0x00, 0xf3, 0x49, 0xef, 0x3e, 0x19, 0x6a, 0xc1, 0xbe, 
0xd3, 0x38, 0x58, 0xbf, 0x8a, 0x46, 0x19, 0xbd, 0xa4, 0x31, 0x4d, 0x3c, 
0x84, 0x35, 0x92, 0x3e, 0x5f, 0x66, 0x13, 0xbf, 0x04, 0x45, 0x51, 0xbe, 
0x67, 0xa1, 0xa4, 0xbe, 0x64, 0x64, 0x29, 0x3f, 0x11, 0x10, 0x86, 0x3e, 
0xde, 0x20, 0x83, 0x3e, 0x5b, 0x64, 0x04, 0x3f, 0x7a, 0xfa, 0xff, 0xff, 
0x04, 0x00, 0x00, 0x00, 0x0c, 0x00, 0x00, 0x00, 0xdd, 0x10, 0x3f, 0x3f, 
0x77, 0x68, 0xbd, 0xbc, 0xe1, 0xc0, 0xe6, 0xbe, 0x92, 0xfa, 0xff, 0xff, 
0x04, 0x00, 0x00, 0x00, 0x00, 0x04, 0x00, 0x00, 0xfc, 0xa5, 0xa7, 0xbd, 
0xff, 0x02, 0xe0, 0xbd, 0x29, 0x5d, 0x8f, 0xbe, 0x6c, 0x96, 0x5b, 0x3e, 
0xff, 0xa3, 0x48, 0x3e, 0xa9, 0x1b, 0x81, 0x3e, 0xa7, 0x06, 0xb0, 0xbc, 
0xea, 0xf3, 0xb3, 0xbe, 0x65, 0x96, 0x56, 0x3d, 0x1e, 0x14, 0xaa, 0x3e, 
0x75, 0x4f, 0x4a, 0x3e, 0x5e, 0x7b, 0x81, 0x3e, 0x40, 0x2b, 0xa5, 0x3d, 
0x8c, 0xa7, 0xaf, 0x3d, 0x82, 0x87, 0x4b, 0x3d, 0x54, 0x2b, 0xb3, 0xbd, 
0xf9, 0x05, 0x66, 0x3d, 0xd1, 0xae, 0x5b, 0x3e, 0xa3, 0x2f, 0xbb, 0xbe, 
0xa5, 0x84, 0xac, 0x3e, 0x29, 0x6d, 0x98, 0x3e, 0xca, 0xc4, 0x7a, 0x3d, 
0x5e, 0x6a, 0x8d, 0xbe, 0xa3, 0x65, 0x14, 0xbd, 0xa5, 0x01, 0x89, 0xbe, 
0x0c, 0x91, 0x42, 0x3e, 0xf1, 0x6f, 0x17, 0xbe, 0x72, 0xd3, 0xd5, 0x3e, 
0x6e, 0x36, 0x65, 0xbe, 0x98, 0xde, 0x79, 0xbe, 0x8d, 0xba, 0x34, 0x3d, 
0x5b, 0x38, 0xdb, 0x3e, 0x54, 0xf6, 0x6b, 0xbe, 0x1a, 0x77, 0x0d, 0x3e, 
0x9c, 0x79, 0xf5, 0x3d, 0xa4, 0x6a, 0x8b, 0xbd, 0xc1, 0xaa, 0xb0, 0x3e, 
0x54, 0x8a, 0x86, 0xbe, 0xab, 0x76, 0x75, 0xbe, 0x00, 0xa3, 0x60, 0xbd, 
0xd1, 0x49, 0xb6, 0x3e, 0x27, 0xaf, 0x96, 0xbe, 0x96, 0xd2, 0x80, 0xbe, 
0xa0, 0x36, 0x9b, 0xbe, 0x1a, 0xb0, 0x22, 0x3e, 0x5e, 0x53, 0x27, 0x3e, 
0x0a, 0x1c, 0xab, 0xbe, 0xa2, 0x37, 0x94, 0xbe, 0x5f, 0xe7, 0xb3, 0xbe, 
0x0b, 0xfa, 0x43, 0xbe, 0x7b, 0x9f, 0xb0, 0xbe, 0x0b, 0xe8, 0xca, 0x3e, 
0x94, 0xdf, 0x59, 0x3e, 0xfb, 0x85, 0x34, 0x3e, 0x64, 0x15, 0xa0, 0x3d, 
0x6c, 0x14, 0xdb, 0x3d, 0xe2, 0x6b, 0x52, 0x3e, 0x2f, 0xb8, 0x5a, 0xbe, 
0x14, 0xc5, 0x46, 0xbe, 0xda, 0x8b, 0x24, 0xbe, 0xe9, 0x58, 0xe4, 0xbe, 
0x75, 0x94, 0x58, 0x3d, 0xb2, 0xa2, 0xb1, 0x3e, 0xe0, 0x6d, 0xfb, 0xbd, 
0xae, 0xef, 0xb0, 0xbe, 0xfa, 0xdb, 0xdf, 0x3e, 0x87, 0x7b, 0x5c, 0x3c, 
0x42, 0xfc, 0xa5, 0x3d, 0x1e, 0xf1, 0x66, 0xbe, 0xd7, 0x69, 0x56, 0xbd, 
0x36, 0xdd, 0xb2, 0xbe, 0x77, 0x23, 0xe1, 0x3e, 0x47, 0x80, 0xac, 0xbe, 
0x8a, 0x58, 0xb8, 0x3c, 0x4a, 0x0f, 0x64, 0x3e, 0x79, 0xe3, 0x48, 0x3e, 
0x3d, 0x80, 0x50, 0xbe, 0xae, 0x4b, 0xf4, 0x3d, 0x11, 0x47, 0xd5, 0xbe, 
0x1a, 0x34, 0x49, 0x3e, 0x9a, 0xd2, 0xa7, 0x3d, 0x6a, 0x47, 0x7d, 0xbe, 
0x5f, 0xfa, 0x48, 0xbe, 0x2d, 0x0a, 0xa6, 0xbe, 0xcd, 0x0a, 0xb0, 0xbe, 
0xea, 0xb8, 0x05, 0xbe, 0x4c, 0x4a, 0x63, 0x3e, 0x7e, 0x32, 0x7e, 0x3e, 
0x33, 0x11, 0x68, 0x3d, 0x05, 0x3e, 0xaa, 0xbe, 0x97, 0xa4, 0x8d, 0x3e, 
0x2a, 0xf9, 0x84, 0x3e, 0x0b, 0xaf, 0x2b, 0xbe, 0xfd, 0x1f, 0x88, 0x3e, 
0x09, 0x02, 0xd7, 0x3e, 0x27, 0x13, 0xf2, 0x3d, 0x9e, 0x5f, 0xf2, 0xbe, 
0x74, 0xa9, 0xc6, 0x3d, 0x6b, 0x27, 0xdd, 0xbc, 0xca, 0xfe, 0xc5, 0xbe, 
0x09, 0xc7, 0x3a, 0x3e, 0x38, 0x29, 0x22, 0xbd, 0xed, 0x3d, 0xf5, 0x3d, 
0x2f, 0x66, 0xc5, 0xbe, 0xb3, 0x04, 0x26, 0x3d, 0x88, 0x5f, 0x55, 0xbe, 
0x9c, 0xb7, 0x92, 0x3e, 0x81, 0x29, 0x27, 0xbe, 0x4f, 0x83, 0x22, 0x3d, 
0xb3, 0xfc, 0x8c, 0x3e, 0x7b, 0x3d, 0xa5, 0x3d, 0xc5, 0xcf, 0x20, 0x3e, 
0xb8, 0x01, 0x7c, 0x3e, 0x92, 0xde, 0xab, 0xbe, 0x41, 0x59, 0xea, 0xbe, 
0xf8, 0x92, 0x50, 0x3d, 0x02, 0xcd, 0x24, 0xbe, 0xe8, 0xc2, 0xc1, 0x3e, 
0x27, 0x78, 0x95, 0x3e, 0x1b, 0xc6, 0xc0, 0xbe, 0xa7, 0xea, 0x21, 0xbd, 
0xc3, 0xe5, 0xba, 0xbe, 0xb3, 0x0e, 0x40, 0xbe, 0x3e, 0xf2, 0x81, 0x3e, 
0x47, 0xf7, 0xaa, 0xbd, 0xfa, 0x95, 0x55, 0xbe, 0x24, 0x07, 0xe2, 0x3e, 
0x64, 0x61, 0xb1, 0x3e, 0x17, 0x5c, 0xba, 0xbe, 0xe9, 0x21, 0x84, 0xbd, 
0x8f, 0xb0, 0xc6, 0xbe, 0xca, 0xed, 0xa4, 0x3e, 0x3c, 0x10, 0x14, 0x3d, 
0x0b, 0xf2, 0xdd, 0x3d, 0xc0, 0x68, 0xac, 0x3c, 0x7b, 0xfa, 0xee, 0xbe, 
0xca, 0x62, 0xe3, 0xbc, 0x64, 0xa3, 0xc1, 0xbd, 0x04, 0x9f, 0x1b, 0xbe, 
0x57, 0xf0, 0x45, 0x3e, 0x4f, 0xbd, 0x31, 0x3e, 0xed, 0x5e, 0x10, 0x3d, 
0x06, 0x2e, 0xb1, 0x3e, 0xf7, 0xf3, 0x17, 0xbd, 0x97, 0x4b, 0xca, 0x3e, 
0x15, 0x35, 0xae, 0xbe, 0x8f, 0x78, 0x39, 0xbc, 0x6b, 0x74, 0xfc, 0xba, 
0x64, 0x61, 0xd5, 0x3e, 0x18, 0xed, 0x86, 0x3d, 0xee, 0x85, 0x1a, 0x3e, 
0xf6, 0x3e, 0xe3, 0xbc, 0xd8, 0x6b, 0xb3, 0xbd, 0x2a, 0x35, 0x21, 0x3e, 
0x3c, 0xee, 0xf7, 0x3d, 0x30, 0x81, 0xcb, 0x3d, 0x78, 0x3e, 0x2b, 0x3b, 
0x1a, 0x4c, 0xf6, 0x3d, 0xdc, 0x8f, 0x12, 0xbf, 0x0c, 0xb6, 0x0b, 0xbe, 
0xfb, 0x23, 0x92, 0xbe, 0x48, 0x5e, 0x11, 0xbe, 0x59, 0x25, 0x33, 0x3e, 
0x47, 0x21, 0x32, 0x3e, 0xb2, 0x80, 0xd9, 0xbe, 0xbb, 0xd1, 0x83, 0x3e, 
0xa6, 0x08, 0x59, 0xbe, 0x67, 0x2a, 0xb2, 0xbe, 0xf9, 0xbc, 0x8f, 0xbe, 
0x97, 0x23, 0xbf, 0x3e, 0xd5, 0x69, 0xb4, 0x3e, 0x75, 0xcb, 0x83, 0xbe, 
0x9e, 0x59, 0x37, 0x3e, 0x6b, 0x21, 0x13, 0x3d, 0x4b, 0x95, 0x44, 0x3e, 
0x1b, 0x11, 0x6f, 0xbe, 0x59, 0xbe, 0x65, 0xbe, 0xcd, 0xeb, 0xa2, 0xbe, 
0x2a, 0x7d, 0xa6, 0x3e, 0xa7, 0x6d, 0x4e, 0x3c, 0xac, 0xe4, 0x8b, 0xbe, 
0xa5, 0xc1, 0x10, 0xbe, 0xe1, 0x97, 0x91, 0x3d, 0x89, 0x39, 0x0d, 0x3d, 
0x06, 0xb1, 0x8e, 0xbe, 0x41, 0x19, 0xc7, 0x3e, 0x63, 0x6a, 0x92, 0xbe, 
0x83, 0x21, 0x0c, 0xbe, 0x6b, 0xd4, 0xfc, 0x3d, 0x66, 0x4d, 0x85, 0x3e, 
0x78, 0xe3, 0xd4, 0x3e, 0xbc, 0x2e, 0xc5, 0xbe, 0x76, 0xca, 0x3c, 0x3e, 
0x22, 0x57, 0x8d, 0xbe, 0xdf, 0xb5, 0x02, 0x3e, 0x6f, 0xef, 0x7e, 0xbd, 
0x67, 0x2f, 0x64, 0x3e, 0xf9, 0x69, 0x81, 0xbe, 0x7d, 0x35, 0x86, 0x3e, 
0x55, 0xb5, 0x8e, 0x3e, 0x30, 0xb8, 0xff, 0x3d, 0x64, 0xd2, 0x4f, 0x3e, 
0xf9, 0xb2, 0x9a, 0x3e, 0x7a, 0x7a, 0xbe, 0x3e, 0x71, 0x06, 0x64, 0x3d, 
0x08, 0xa7, 0x85, 0xbe, 0x2f, 0x48, 0x67, 0x3c, 0x51, 0xc9, 0x29, 0xbe, 
0xe3, 0x34, 0x08, 0xbe, 0xab, 0x10, 0x51, 0x3e, 0x5f, 0x53, 0x89, 0xbd, 
0x8e, 0x9f, 0x1c, 0xbe, 0x48, 0xc3, 0x7a, 0x3d, 0x57, 0x9e, 0x47, 0xbe, 
0x5b, 0x9a, 0x23, 0xbe, 0xd8, 0xca, 0x72, 0x3e, 0xaf, 0x9e, 0x58, 0xbe, 
0x75, 0x28, 0x26, 0xbd, 0x73, 0xdf, 0x7c, 0xbe, 0x9c, 0x21, 0x59, 0x3e, 
0x8b, 0x87, 0x05, 0xbf, 0xdd, 0x3d, 0x85, 0xbe, 0x65, 0x8a, 0x6a, 0x3e, 
0x99, 0x81, 0xa0, 0xbe, 0x3e, 0xc3, 0xad, 0x3e, 0x02, 0x07, 0xd7, 0x3d, 
0x05, 0x29, 0x6c, 0x3e, 0x71, 0x23, 0xaf, 0x3e, 0x72, 0x38, 0x7b, 0x3e, 
0x67, 0x8c, 0x2c, 0x3e, 0x51, 0xcb, 0x40, 0x3d, 0xc1, 0x13, 0xb5, 0x3d, 
0x28, 0x4f, 0x74, 0xbe, 0x55, 0x2f, 0x8a, 0xbe, 0x0b, 0x6f, 0xac, 0xbe, 
0x6a, 0x16, 0x50, 0x3e, 0xe7, 0x90, 0xe6, 0xbe, 0x16, 0xdc, 0x0b, 0xbd, 
0x5f, 0xd4, 0xd9, 0xbe, 0x89, 0x54, 0x7e, 0x3e, 0x0f, 0x89, 0x8c, 0x3e, 
0x6a, 0xa3, 0x5f, 0xbe, 0xb6, 0xfb, 0xd0, 0x3e, 0x6c, 0x5b, 0x11, 0xba, 
0x9c, 0x54, 0x8a, 0x3d, 0xed, 0x50, 0x0d, 0xbe, 0xf8, 0xa9, 0x4a, 0xbd, 
0xee, 0xed, 0x8a, 0xbe, 0xe9, 0xb8, 0x12, 0xbe, 0xd5, 0x94, 0x88, 0xbe, 
0x89, 0x81, 0x9c, 0x3e, 0x4b, 0xc0, 0x94, 0x3e, 0xa1, 0x2d, 0xb3, 0xbe, 
0x5e, 0x96, 0x65, 0x3e, 0x38, 0xd6, 0xba, 0x3e, 0xa2, 0x84, 0x93, 0xbe, 
0x9e, 0xfe, 0xff, 0xff, 0x04, 0x00, 0x00, 0x00, 0xc0, 0x00, 0x00, 0x00, 
0xa0, 0x9a, 0xe8, 0xbe, 0x7d, 0xda, 0x04, 0xbf, 0xc0, 0x35, 0x52, 0xbd, 
0x33, 0xd4, 0xfa, 0x3e, 0xfc, 0xdb, 0x58, 0xbe, 0xc7, 0x7f, 0x79, 0xbe, 
0x2d, 0x2a, 0x65, 0x3d, 0x56, 0xc4, 0xcf, 0xbe, 0x21, 0xad, 0x0d, 0x3f, 
0xb8, 0x97, 0xab, 0xbe, 0x74, 0x35, 0x29, 0x3e, 0x13, 0xc2, 0xe0, 0x3e, 
0x5f, 0xf8, 0x14, 0xbd, 0xc1, 0x29, 0x07, 0x3f, 0x21, 0x19, 0x56, 0x3e, 
0x91, 0xd0, 0x93, 0x3d, 0xeb, 0x9b, 0xfb, 0x3e, 0x57, 0xcf, 0xaf, 0xbe, 
0x4c, 0x5e, 0xdd, 0x3e, 0x4f, 0xb3, 0x1d, 0x3f, 0x8e, 0xa4, 0x0b, 0xbf, 
0x6a, 0x1f, 0x09, 0xbe, 0xee, 0x8f, 0xae, 0x3e, 0x32, 0x4e, 0x53, 0x3e, 
0x11, 0x52, 0xd9, 0xbe, 0xe0, 0xab, 0x14, 0xbf, 0x41, 0xee, 0xc8, 0x3e, 
0x2a, 0xf0, 0x07, 0x3d, 0xa5, 0xc7, 0xf7, 0xbe, 0x30, 0xe8, 0x1a, 0x3e, 
0x0a, 0xd4, 0xb6, 0x3e, 0xa8, 0x0e, 0x2f, 0xbe, 0xce, 0x52, 0xee, 0x3e, 
0xa6, 0xb4, 0x0d, 0x3f, 0x7c, 0x3d, 0xcf, 0xbd, 0x43, 0x62, 0xc8, 0x3e, 
0x8d, 0xd6, 0x8a, 0x3e, 0x6b, 0xa9, 0xb8, 0xbd, 0x0a, 0x19, 0x1d, 0x3d, 
0xdf, 0x97, 0xed, 0xbe, 0x1c, 0xc3, 0xa1, 0xbe, 0xb7, 0xa6, 0x03, 0x3e, 
0xda, 0x5a, 0xa8, 0x3e, 0xf6, 0x40, 0x02, 0x3f, 0x72, 0x38, 0xf4, 0xbe, 
0x47, 0x3e, 0x95, 0x3d, 0x08, 0x8f, 0x42, 0xbd, 0x31, 0x4d, 0x92, 0xbe, 
0x64, 0xfa, 0xff, 0xff, 0x68, 0xfa, 0xff, 0xff, 0x0f, 0x00, 0x00, 0x00, 
0x4d, 0x4c, 0x49, 0x52, 0x20, 0x43, 0x6f, 0x6e, 0x76, 0x65, 0x72, 0x74, 
0x65, 0x64, 0x2e, 0x00, 0x01, 0x00, 0x00, 0x00, 0x14, 0x00, 0x00, 0x00, 
0x00, 0x00, 0x0e, 0x00, 0x18, 0x00, 0x14, 0x00, 0x10, 0x00, 0x0c, 0x00, 
0x08, 0x00, 0x04, 0x00, 0x0e, 0x00, 0x00, 0x00, 0x14, 0x00, 0x00, 0x00, 
0x1c, 0x00, 0x00, 0x00, 0x24, 0x01, 0x00, 0x00, 0x28, 0x01, 0x00, 0x00, 
0x2c, 0x01, 0x00, 0x00, 0x04, 0x00, 0x00, 0x00, 0x6d, 0x61, 0x69, 0x6e, 
0x00, 0x00, 0x00, 0x00, 0x04, 0x00, 0x00, 0x00, 0xcc, 0x00, 0x00, 0x00, 
0x84, 0x00, 0x00, 0x00, 0x50, 0x00, 0x00, 0x00, 0x14, 0x00, 0x00, 0x00, 
0x00, 0x00, 0x0e, 0x00, 0x1a, 0x00, 0x14, 0x00, 0x10, 0x00, 0x0c, 0x00, 
0x0b, 0x00, 0x04, 0x00, 0x0e, 0x00, 0x00, 0x00, 0x1c, 0x00, 0x00, 0x00, 
0x00, 0x00, 0x00, 0x09, 0x1c, 0x00, 0x00, 0x00, 0x20, 0x00, 0x00, 0x00, 
0x01, 0x00, 0x00, 0x00, 0x00, 0x00, 0x06, 0x00, 0x08, 0x00, 0x04, 0x00, 
0x06, 0x00, 0x00, 0x00, 0x00, 0x00, 0x80, 0x3f, 0x01, 0x00, 0x00, 0x00, 
0x0a, 0x00, 0x00, 0x00, 0x01, 0x00, 0x00, 0x00, 0x09, 0x00, 0x00, 0x00, 
0x9a, 0xff, 0xff, 0xff, 0x10, 0x00, 0x00, 0x00, 0x00, 0x00, 0x00, 0x08, 
0x0c, 0x00, 0x00, 0x00, 0x10, 0x00, 0x00, 0x00, 0x2c, 0xfb, 0xff, 0xff, 
0x01, 0x00, 0x00, 0x00, 0x09, 0x00, 0x00, 0x00, 0x03, 0x00, 0x00, 0x00, 
0x08, 0x00, 0x00, 0x00, 0x01, 0x00, 0x00, 0x00, 0x03, 0x00, 0x00, 0x00, 
0xca, 0xff, 0xff, 0xff, 0x10, 0x00, 0x00, 0x00, 0x00, 0x00, 0x00, 0x08, 
0x10, 0x00, 0x00, 0x00, 0x14, 0x00, 0x00, 0x00, 0xba, 0xff, 0xff, 0xff, 
0x00, 0x00, 0x00, 0x01, 0x01, 0x00, 0x00, 0x00, 0x08, 0x00, 0x00, 0x00, 
0x03, 0x00, 0x00, 0x00, 0x07, 0x00, 0x00, 0x00, 0x02, 0x00, 0x00, 0x00, 
0x04, 0x00, 0x00, 0x00, 0x00, 0x00, 0x0e, 0x00, 0x16, 0x00, 0x00, 0x00, 
0x10, 0x00, 0x0c, 0x00, 0x0b, 0x00, 0x04, 0x00, 0x0e, 0x00, 0x00, 0x00, 
0x18, 0x00, 0x00, 0x00, 0x00, 0x00, 0x00, 0x08, 0x18, 0x00, 0x00, 0x00, 
0x1c, 0x00, 0x00, 0x00, 0x00, 0x00, 0x06, 0x00, 0x08, 0x00, 0x07, 0x00, 
0x06, 0x00, 0x00, 0x00, 0x00, 0x00, 0x00, 0x01, 0x01, 0x00, 0x00, 0x00, 
0x07, 0x00, 0x00, 0x00, 0x03, 0x00, 0x00, 0x00, 0x00, 0x00, 0x00, 0x00, 
0x06, 0x00, 0x00, 0x00, 0x05, 0x00, 0x00, 0x00, 0x01, 0x00, 0x00, 0x00, 
0x0a, 0x00, 0x00, 0x00, 0x01, 0x00, 0x00, 0x00, 0x00, 0x00, 0x00, 0x00, 
0x0b, 0x00, 0x00, 0x00, 0xfc, 0x03, 0x00, 0x00, 0xa4, 0x03, 0x00, 0x00, 
0x4c, 0x03, 0x00, 0x00, 0x10, 0x03, 0x00, 0x00, 0xb4, 0x02, 0x00, 0x00, 
0x5c, 0x02, 0x00, 0x00, 0x10, 0x02, 0x00, 0x00, 0x7c, 0x01, 0x00, 0x00, 
0xe0, 0x00, 0x00, 0x00, 0x60, 0x00, 0x00, 0x00, 0x04, 0x00, 0x00, 0x00, 
0x46, 0xfc, 0xff, 0xff, 0x00, 0x00, 0x00, 0x01, 0x14, 0x00, 0x00, 0x00, 
0x1c, 0x00, 0x00, 0x00, 0x1c, 0x00, 0x00, 0x00, 0x0b, 0x00, 0x00, 0x00, 
0x34, 0x00, 0x00, 0x00, 0x02, 0x00, 0x00, 0x00, 0xff, 0xff, 0xff, 0xff, 
0x03, 0x00, 0x00, 0x00, 0x30, 0xfc, 0xff, 0xff, 0x1b, 0x00, 0x00, 0x00, 
0x53, 0x74, 0x61, 0x74, 0x65, 0x66, 0x75, 0x6c, 0x50, 0x61, 0x72, 0x74, 
0x69, 0x74, 0x69, 0x6f, 0x6e, 0x65, 0x64, 0x43, 0x61, 0x6c, 0x6c, 0x5f, 
0x31, 0x3a, 0x30, 0x00, 0x02, 0x00, 0x00, 0x00, 0x01, 0x00, 0x00, 0x00, 
0x03, 0x00, 0x00, 0x00, 0x9e, 0xfc, 0xff, 0xff, 0x00, 0x00, 0x00, 0x01, 
0x14, 0x00, 0x00, 0x00, 0x1c, 0x00, 0x00, 0x00, 0x1c, 0x00, 0x00, 0x00, 
0x0a, 0x00, 0x00, 0x00, 0x58, 0x00, 0x00, 0x00, 0x02, 0x00, 0x00, 0x00, 
0xff, 0xff, 0xff, 0xff, 0x03, 0x00, 0x00, 0x00, 0x88, 0xfc, 0xff, 0xff, 
0x3c, 0x00, 0x00, 0x00, 0x73, 0x65, 0x71, 0x75, 0x65, 0x6e, 0x74, 0x69, 
0x61, 0x6c, 0x5f, 0x31, 0x2f, 0x64, 0x65, 0x6e, 0x73, 0x65, 0x5f, 0x32, 
0x5f, 0x31, 0x2f, 0x4d, 0x61, 0x74, 0x4d, 0x75, 0x6c, 0x3b, 0x73, 0x65, 
0x71, 0x75, 0x65, 0x6e, 0x74, 0x69, 0x61, 0x6c, 0x5f, 0x31, 0x2f, 0x64, 
0x65, 0x6e, 0x73, 0x65, 0x5f, 0x32, 0x5f, 0x31, 0x2f, 0x42, 0x69, 0x61, 
0x73, 0x41, 0x64, 0x64, 0x00, 0x00, 0x00, 0x00, 0x02, 0x00, 0x00, 0x00, 
0x01, 0x00, 0x00, 0x00, 0x03, 0x00, 0x00, 0x00, 0x1a, 0xfd, 0xff, 0xff, 
0x00, 0x00, 0x00, 0x01, 0x14, 0x00, 0x00, 0x00, 0x1c, 0x00, 0x00, 0x00, 
0x1c, 0x00, 0x00, 0x00, 0x09, 0x00, 0x00, 0x00, 0x74, 0x00, 0x00, 0x00, 
0x02, 0x00, 0x00, 0x00, 0xff, 0xff, 0xff, 0xff, 0x10, 0x00, 0x00, 0x00, 
0x04, 0xfd, 0xff, 0xff, 0x58, 0x00, 0x00, 0x00, 0x73, 0x65, 0x71, 0x75, 
0x65, 0x6e, 0x74, 0x69, 0x61, 0x6c, 0x5f, 0x31, 0x2f, 0x64, 0x65, 0x6e, 
0x73, 0x65, 0x5f, 0x31, 0x5f, 0x32, 0x2f, 0x4d, 0x61, 0x74, 0x4d, 0x75, 
0x6c, 0x3b, 0x73, 0x65, 0x71, 0x75, 0x65, 0x6e, 0x74, 0x69, 0x61, 0x6c, 
0x5f, 0x31, 0x2f, 0x64, 0x65, 0x6e, 0x73, 0x65, 0x5f, 0x31, 0x5f, 0x32, 
0x2f, 0x52, 0x65, 0x6c, 0x75, 0x3b, 0x73, 0x65, 0x71, 0x75, 0x65, 0x6e, 
0x74, 0x69, 0x61, 0x6c, 0x5f, 0x31, 0x2f, 0x64, 0x65, 0x6e, 0x73, 0x65, 
0x5f, 0x31, 0x5f, 0x32, 0x2f, 0x42, 0x69, 0x61, 0x73, 0x41, 0x64, 0x64, 
0x00, 0x00, 0x00, 0x00, 0x02, 0x00, 0x00, 0x00, 0x01, 0x00, 0x00, 0x00, 
0x10, 0x00, 0x00, 0x00, 0xb2, 0xfd, 0xff, 0xff, 0x00, 0x00, 0x00, 0x01, 
0x14, 0x00, 0x00, 0x00, 0x1c, 0x00, 0x00, 0x00, 0x1c, 0x00, 0x00, 0x00, 
0x08, 0x00, 0x00, 0x00, 0x6c, 0x00, 0x00, 0x00, 0x02, 0x00, 0x00, 0x00, 
0xff, 0xff, 0xff, 0xff, 0x10, 0x00, 0x00, 0x00, 0x9c, 0xfd, 0xff, 0xff, 
0x52, 0x00, 0x00, 0x00, 0x73, 0x65, 0x71, 0x75, 0x65, 0x6e, 0x74, 0x69, 
0x61, 0x6c, 0x5f, 0x31, 0x2f, 0x64, 0x65, 0x6e, 0x73, 0x65, 0x5f, 0x31, 
0x2f, 0x4d, 0x61, 0x74, 0x4d, 0x75, 0x6c, 0x3b, 0x73, 0x65, 0x71, 0x75, 
0x65, 0x6e, 0x74, 0x69, 0x61, 0x6c, 0x5f, 0x31, 0x2f, 0x64, 0x65, 0x6e, 
0x73, 0x65, 0x5f, 0x31, 0x2f, 0x52, 0x65, 0x6c, 0x75, 0x3b, 0x73, 0x65, 
0x71, 0x75, 0x65, 0x6e, 0x74, 0x69, 0x61, 0x6c, 0x5f, 0x31, 0x2f, 0x64, 
0x65, 0x6e, 0x73, 0x65, 0x5f, 0x31, 0x2f, 0x42, 0x69, 0x61, 0x73, 0x41, 
0x64, 0x64, 0x00, 0x00, 0x02, 0x00, 0x00, 0x00, 0x01, 0x00, 0x00, 0x00, 
0x10, 0x00, 0x00, 0x00, 0x96, 0xfe, 0xff, 0xff, 0x00, 0x00, 0x00, 0x01, 
0x10, 0x00, 0x00, 0x00, 0x10, 0x00, 0x00, 0x00, 0x07, 0x00, 0x00, 0x00, 
0x28, 0x00, 0x00, 0x00, 0x1c, 0xfe, 0xff, 0xff, 0x1b, 0x00, 0x00, 0x00, 
0x73, 0x65, 0x71, 0x75, 0x65, 0x6e, 0x74, 0x69, 0x61, 0x6c, 0x5f, 0x31, 
0x2f, 0x64, 0x65, 0x6e, 0x73, 0x65, 0x5f, 0x31, 0x2f, 0x4d, 0x61, 0x74, 
0x4d, 0x75, 0x6c, 0x00, 0x02, 0x00, 0x00, 0x00, 0x10, 0x00, 0x00, 0x00, 
0x03, 0x00, 0x00, 0x00, 0xde, 0xfe, 0xff, 0xff, 0x00, 0x00, 0x00, 0x01, 
0x10, 0x00, 0x00, 0x00, 0x10, 0x00, 0x00, 0x00, 0x06, 0x00, 0x00, 0x00, 
0x38, 0x00, 0x00, 0x00, 0x64, 0xfe, 0xff, 0xff, 0x2b, 0x00, 0x00, 0x00, 
0x73, 0x65, 0x71, 0x75, 0x65, 0x6e, 0x74, 0x69, 0x61, 0x6c, 0x5f, 0x31, 
0x2f, 0x64, 0x65, 0x6e, 0x73, 0x65, 0x5f, 0x31, 0x2f, 0x42, 0x69, 0x61, 
0x73, 0x41, 0x64, 0x64, 0x2f, 0x52, 0x65, 0x61, 0x64, 0x56, 0x61, 0x72, 
0x69, 0x61, 0x62, 0x6c, 0x65, 0x4f, 0x70, 0x00, 0x01, 0x00, 0x00, 0x00, 
0x10, 0x00, 0x00, 0x00, 0x32, 0xff, 0xff, 0xff, 0x00, 0x00, 0x00, 0x01, 
0x10, 0x00, 0x00, 0x00, 0x10, 0x00, 0x00, 0x00, 0x05, 0x00, 0x00, 0x00, 
0x3c, 0x00, 0x00, 0x00, 0xb8, 0xfe, 0xff, 0xff, 0x2d, 0x00, 0x00, 0x00, 
0x73, 0x65, 0x71, 0x75, 0x65, 0x6e, 0x74, 0x69, 0x61, 0x6c, 0x5f, 0x31, 
0x2f, 0x64, 0x65, 0x6e, 0x73, 0x65, 0x5f, 0x31, 0x5f, 0x32, 0x2f, 0x42, 
0x69, 0x61, 0x73, 0x41, 0x64, 0x64, 0x2f, 0x52, 0x65, 0x61, 0x64, 0x56, 
0x61, 0x72, 0x69, 0x61, 0x62, 0x6c, 0x65, 0x4f, 0x70, 0x00, 0x00, 0x00, 
0x01, 0x00, 0x00, 0x00, 0x10, 0x00, 0x00, 0x00, 0x8a, 0xff, 0xff, 0xff, 
0x00, 0x00, 0x00, 0x01, 0x10, 0x00, 0x00, 0x00, 0x10, 0x00, 0x00, 0x00, 
0x04, 0x00, 0x00, 0x00, 0x1c, 0x00, 0x00, 0x00, 0x10, 0xff, 0xff, 0xff, 
0x0f, 0x00, 0x00, 0x00, 0x61, 0x72, 0x69, 0x74, 0x68, 0x2e, 0x63, 0x6f, 
0x6e, 0x73, 0x74, 0x61, 0x6e, 0x74, 0x32, 0x00, 0x01, 0x00, 0x00, 0x00, 
0x03, 0x00, 0x00, 0x00, 0xc2, 0xff, 0xff, 0xff, 0x00, 0x00, 0x00, 0x01, 
0x10, 0x00, 0x00, 0x00, 0x10, 0x00, 0x00, 0x00, 0x03, 0x00, 0x00, 0x00, 
0x1c, 0x00, 0x00, 0x00, 0x48, 0xff, 0xff, 0xff, 0x0f, 0x00, 0x00, 0x00, 
0x61, 0x72, 0x69, 0x74, 0x68, 0x2e, 0x63, 0x6f, 0x6e, 0x73, 0x74, 0x61, 
0x6e, 0x74, 0x31, 0x00, 0x02, 0x00, 0x00, 0x00, 0x10, 0x00, 0x00, 0x00, 
0x10, 0x00, 0x00, 0x00, 0x00, 0x00, 0x16, 0x00, 0x18, 0x00, 0x14, 0x00, 
0x00, 0x00, 0x10, 0x00, 0x0c, 0x00, 0x08, 0x00, 0x00, 0x00, 0x00, 0x00, 
0x00, 0x00, 0x07, 0x00, 0x16, 0x00, 0x00, 0x00, 0x00, 0x00, 0x00, 0x01, 
0x10, 0x00, 0x00, 0x00, 0x10, 0x00, 0x00, 0x00, 0x02, 0x00, 0x00, 0x00, 
0x1c, 0x00, 0x00, 0x00, 0x9c, 0xff, 0xff, 0xff, 0x0e, 0x00, 0x00, 0x00, 
0x61, 0x72, 0x69, 0x74, 0x68, 0x2e, 0x63, 0x6f, 0x6e, 0x73, 0x74, 0x61, 
0x6e, 0x74, 0x00, 0x00, 0x02, 0x00, 0x00, 0x00, 0x03, 0x00, 0x00, 0x00, 
0x10, 0x00, 0x00, 0x00, 0x00, 0x00, 0x16, 0x00, 0x1c, 0x00, 0x18, 0x00, 
0x00, 0x00, 0x14, 0x00, 0x10, 0x00, 0x0c, 0x00, 0x00, 0x00, 0x00, 0x00, 
0x08, 0x00, 0x07, 0x00, 0x16, 0x00, 0x00, 0x00, 0x00, 0x00, 0x00, 0x01, 
0x14, 0x00, 0x00, 0x00, 0x20, 0x00, 0x00, 0x00, 0x20, 0x00, 0x00, 0x00, 
0x01, 0x00, 0x00, 0x00, 0x3c, 0x00, 0x00, 0x00, 0x02, 0x00, 0x00, 0x00, 
0xff, 0xff, 0xff, 0xff, 0x03, 0x00, 0x00, 0x00, 0x04, 0x00, 0x04, 0x00, 
0x04, 0x00, 0x00, 0x00, 0x1e, 0x00, 0x00, 0x00, 0x73, 0x65, 0x72, 0x76, 
0x69, 0x6e, 0x67, 0x5f, 0x64, 0x65, 0x66, 0x61, 0x75, 0x6c, 0x74, 0x5f, 
0x6b, 0x65, 0x72, 0x61, 0x73, 0x5f, 0x74, 0x65, 0x6e, 0x73, 0x6f, 0x72, 
0x3a, 0x30, 0x00, 0x00, 0x02, 0x00, 0x00, 0x00, 0x01, 0x00, 0x00, 0x00, 
0x03, 0x00, 0x00, 0x00, 0x02, 0x00, 0x00, 0x00, 0x20, 0x00, 0x00, 0x00, 
0x04, 0x00, 0x00, 0x00, 0xf4, 0xff, 0xff, 0xff, 0x19, 0x00, 0x00, 0x00, 
0x00, 0x00, 0x00, 0x19, 0x0c, 0x00, 0x0c, 0x00, 0x0b, 0x00, 0x00, 0x00, 
0x00, 0x00, 0x04, 0x00, 0x0c, 0x00, 0x00, 0x00, 0x09, 0x00, 0x00, 0x00, 
0x00, 0x00, 0x00, 0x09, };

unsigned int model_tflite_len = 3652;

#endif